{"<|endoftext|>":0,"<|pad|>":1,"!":2,"\"":3,"#":4,"$":5,"%":6,"&":7,"'":8,"(":9,")":10,"*":11,"+":12,",":13,"-":14,".":15,"/":16,"0":17,"1":18,"2":19,"3":20,"4":21,"5":22,"6":23,"7":24,"8":25,"9":26,":":27,";":28,"<":29,"=":30,">":31,"?":32,"@":33,"A":34,"B":35,"C":36,"D":37,"E":38,"F":39,"G":40,"H":41,"I":42,"J":43,"K":44,"L":45,"M":46,"N":47,"O":48,"P":49,"Q":50,"R":51,"S":52,"T":53,"U":54,"V":55,"W":56,"X":57,"Y":58,"Z":59,"[":60,"\\":61,"]":62,"^":63,"_":64,"`":65,"a":66,"b":67,"c":68,"d":69,"e":70,"f":71,"g":72,"h":73,"i":74,"j":75,"k":76,"l":77,"m":78,"n":79,"o":80,"p":81,"q":82,"r":83,"s":84,"t":85,"u":86,"v":87,"w":88,"x":89,"y":90,"z":91,"{":92,"|":93,"}":94,"~":95,"¡":96,"¢":97,"£":98,"¤":99,"¥":100,"¦":101,"§":102,"¨":103,"©":104,"ª":105,"«":106,"¬":107,"®":108,"¯":109,"°":110,"±":111,"²":112,"³":113,"´":114,"µ":115,"¶":116,"·":117,"¸":118,"¹":119,"º":120,"»":121,"¼":122,"½":123,"¾":124,"¿":125,"À":126,"Á":127,"Â":128,"Ã":129,"Ä":130,"Å":131,"Æ":132,"Ç":133,"È":134,"É":135,"Ê":136,"Ë":137,"Ì":138,"Í":139,"Î":140,"Ï":141,"Ð":142,"Ñ":143,"Ò":144,"Ó":145,"Ô":146,"Õ":147,"Ö":148,"×":149,"Ø":150,"Ù":151,"Ú":152,"Û":153,"Ü":154,"Ý":155,"Þ":156,"ß":157,"à":158,"á":159,"â":160,"ã":161,"ä":162,"å":163,"æ":164,"ç":165,"è":166,"é":167,"ê":168,"ë":169,"ì":170,"í":171,"î":172,"ï":173,"ð":174,"ñ":175,"ò":176,"ó":177,"ô":178,"õ":179,"ö":180,"÷":181,"ø":182,"ù":183,"ú":184,"û":185,"ü":186,"ý":187,"þ":188,"ÿ":189,"Ā":190,"ā":191,"Ă":192,"ă":193,"Ą":194,"ą":195,"Ć":196,"ć":197,"Ĉ":198,"ĉ":199,"Ċ":200,"ċ":201,"Č":202,"č":203,"Ď":204,"ď":205,"Đ":206,"đ":207,"Ē":208,"ē":209,"Ĕ":210,"ĕ":211,"Ė":212,"ė":213,"Ę":214,"ę":215,"Ě":216,"ě":217,"Ĝ":218,"ĝ":219,"Ğ":220,"ğ":221,"Ġ":222,"ġ":223,"Ģ":224,"ģ":225,"Ĥ":226,"ĥ":227,"Ħ":228,"ħ":229,"Ĩ":230,"ĩ":231,"Ī":232,"ī":233,"Ĭ":234,"ĭ":235,"Į":236,"į":237,"İ":238,"ı":239,"Ĳ":240,"ĳ":241,"Ĵ":242,"ĵ":243,"Ķ":244,"ķ":245,"ĸ":246,"Ĺ":247,"ĺ":248,"Ļ":249,"ļ":250,"Ľ":251,"ľ":252,"Ŀ":253,"ŀ":254,"Ł":255,"ł":256,"Ń":257,"Ġa":258,"in":259,"ou":260,"en":261,"te":262,"le":263,"is":264,"Ġt":265,"Ġs":266,"at":267,"ing":268,"Ġc":269,"ar":270,"se":271,"end":272,"on":273,"ot":274,"ple":275,"bou":276,"Ġabou":277,"Ġabout":278,"fte":279,"Ġb":280,"Ġis":281,"xt":282,"<|":283,"Bot":284,"Use":285,"ofte":286,"|>":287,"endofte":288,"User":289,"endoftext":290,".<|":291,"an":292,"Ġw":293,"Ġbe":294,"ati":295,"Ġp":296,"or":297,"Ġf":298,"mple":299,"you":300,"Ġyou":301,"ic":302,"ation":303,"ke":304,"Ġto":305,"Ġth":306,"me":307,"Ġe":308,"Ġex":309,"his":310,"ter":311,"ĠT":312,"Ġd":313,"ample":314,"iation":315,"var":316,"Ġvar":317,"Ġexample":318,"ĠThis":319,"Ġvariation":320,"nd":321,"Ġand":322,"ay":323,"Ġg":324,"es":325,"Ġ2":326,"ink":327,"Ġthink":328,"ly":329,"ri":330,"Ġcan":331,"lear":332,"ĠI":333,"ĠW":334,"ĠWh":335,"ve":336,"al":337,"ning":338,"it":339,"est":340,"Ġst":341,"ra":342,"Ġfor":343,"ake":344,"Ġwh":345,"ice":346,"Ġl":347,"Ġit":348,"Ġm":349,"endly":350,"Ġfri":351,"Ġfriendly":352,"tter":353,"Ġbetter":354,"Ġli":355,"eo":356,"Ġpeo":357,"Ġpeople":358,"Ġat":359,"Ġlear":360,"re":361,"Ġdo":362,"imple":363,"Ġsimple":364,"Ġme":365,"Ġn":366,"ks":367,"ct":368,"Ġh":369,"el":370,"oo":371,"ai":372,"rs":373,"ons":374,"atien":375,"king":376,"ep":377,"Ġpra":378,"Ġpract":379,"Ġpatien":380,"Ġke":381,"ĠM":382,"eel":383,"Ġfeel":384,"ĠA":385,"ĠF":386,"mal":387,"Ġsmal":388,"Ġsmall":389,"reat":390,"ood":391,"Ġcon":392,"Ġgood":393,"pic":394,"use":395,"Ġcal":396,"Ġtopic":397,"vers":398,"Ġconvers":399,"Ġcalm":400,"Ġconversation":401,"Ġon":402,"tep":403,"Ġstep":404,"Ġwhen":405,"Ġone":406,"ous":407,"art":408,"Ġstart":409,"ause":410,"cause":411,"fe":412,"jo":413,"Ġen":414,"any":415,"Ġbecause":416,"Ġdai":417,"Ġmake":418,"Ġlife":419,"ĠMany":420,"joy":421,"Ġenjoy":422,"Ġdaily":423,"otice":424,"Ġwor":425,"Ġwhat":426,"Ġnotice":427,"Ġpatient":428,"ĠFor":429,"Ġworks":430,"gin":431,"ions":432,"qu":433,"sking":434,"Ġqu":435,"Ġasking":436,"tel":437,"Ġclear":438,"Ġbegin":439,"Ġgreat":440,"ĠWhen":441,"estions":442,"Ġlearning":443,"Ġquestions":444,"Ġbeginning":445,"uri":446,"Ġcuri":447,"Ġway":448,"icing":449,"Ġstay":450,"Ġpracticing":451,"Ġkeep":452,"Ġcurious":453,"et":454,"Ġti":455,"Ġin":456,"Ġtake":457,"terest":458,"Ġtime":459,"Ġinterest":460,"Ġinteresting":461,"hing":462,"ome":463,"ĠH":464,"ĠC":465,"ĠP":466,"ĠD":467,"ow":468,"ĠDo":469,"ĠWhat":470,"ĠG":471,"Ġha":472,"Ġtel":473,"Ġtell":474,"dv":475,"Ġadv":476,"Ġhave":477,"Ġadvice":478,"ĠHow":479,"Ġget":480,"gh":481,"ive":482,"ough":483,"Ġthough":484,"ĠGive":485,"Ġthought":486,"Ġlike":487,"ĠWhy":488,"ĠCan":489,"ad":490,"ant":491,"Ġwant":492,"Ġlearn":493,"ase":494,"thing":495,"lease":496,"Ġsay":497,"Ġsome":498,"ĠPlease":499,"Ġsomething":500,"tes":501,"er":502,"otes":503,"Ġnotes":504,"ading":505,"ds":506,"ening":507,"ir":508,"wor":509,"work":510,"as":511,"ath":512,"ce":513,"Ġwe":514,"rain":515,"ro":516,"Ġcl":517,"Ġre":518,"Ġco":519,"Ġreading":520,"ist":521,"ld":522,"ank":523,"orning":524,"Ġmorning":525,"ls":526,"lan":527,"mai":528,"no":529,"rno":530,"Ġafte":531,"arm":532,"Ġmornings":533,"lanning":534,"mails":535,"rnoons":536,"Ġafternoons":537,"cis":538,"wing":539,"Ġboo":540,"alad":541,"rawing":542,"ercis":543,"rains":544,"Ġbooks":545,"ercise":546,"elp":547,"ap":548,"bb":549,"bs":550,"dw":551,"hes":552,"ites":553,"sic":554,"usic":555,"oup":556,"ish":557,"andw":558,"iches":559,"its":560,"aps":561,"bbits":562,"bsites":563,"andwiches":564,"ater":565,"bo":566,"bot":567,"ci":568,"dy":569,"ect":570,"ies":571,"ject":572,"kies":573,"mp":574,"nn":575,"pple":576,"ta":577,"uter":578,"unn":579,"ybo":580,"oudy":581,"Ġskies":582,"ats":583,"ings":584,"arks":585,"ards":586,"Ġparks":587,"ory":588,"Ġday":589,"ity":590,"Ġlist":591,"etings":592,"irds":593,"asta":594,"ather":595,"Ġweather":596,"roject":597,"bots":598,"mputer":599,"pples":600,"unny":601,"yboards":602,"rojects":603,"mputers":604,"am":605,"ching":606,"ers":607,"hers":608,"otel":609,"tching":610,"Ġot":611,"alking":612,"retching":613,"omework":614,"elping":615,"Ġdays":616,"amwork":617,"otels":618,"Ġothers":619,"dening":620,"har":621,"hon":622,"por":623,"ts":624,"leep":625,"ardening":626,"irpor":627,"haring":628,"hones":629,"irports":630,"gs":631,"ence":632,"Ġpractice":633,"ass":634,"Ġclass":635,"cience":636,"Ġwarm":637,"Ġthank":638,"Ġemails":639,"Ġplanning":640,"Ġcold":641,"Ġtrains":642,"Ġexercise":643,"Ġdrawing":644,"Ġra":645,"Ġsalad":646,"Ġsoup":647,"Ġsandwiches":648,"Ġwebsites":649,"Ġrabbits":650,"Ġfish":651,"Ġmusic":652,"tory":653,"Ġhis":654,"Ġsunny":655,"Ġcats":656,"Ġcity":657,"Ġwater":658,"Ġpasta":659,"Ġprojects":660,"Ġmaps":661,"Ġmeetings":662,"Ġcloudy":663,"Ġcomputers":664,"Ġlistening":665,"Ġhistory":666,"rest":667,"Ġro":668,"Ġrest":669,"Ġapples":670,"Ġbirds":671,"Ġkeyboards":672,"Ġrobots":673,"Ġte":674,"Ġrain":675,"Ġwalking":676,"Ġhomework":677,"Ġhelping":678,"Ġhotels":679,"Ġpatience":680,"Ġteamwork":681,"Ġrainy":682,"Ġstretching":683,"Ġairports":684,"Ġsharing":685,"Ġphones":686,"Ġgardening":687,"Ġsleep":688,"Ġscience":689,"Ġmath":690,"Ġdogs":691,"Ġ3":692,"ĠS":693,"ĠR":694,"eading":695,"ĠCo":696,"ĠReading":697,"hank":698,"ĠE":699,"ĠThank":700,"ĠRa":701,"Ġam":702,"ere":703,"day":704,"ould":705,"Ġyour":706,"Ġtoday":707,"ĠMaps":708,"ĠSalad":709,"Birds":710,"Ke":711,"obots":712,"tretching":713,"ĠBirds":714,"ĠKe":715,"ĠMusic":716,"ĠApples":717,"ĠFish":718,"ĠPlanning":719,"ĠSleep":720,"ĠStretching":721,"ĠRest":722,"ĠRobots":723,"ĠCold":724,"ĠKeyboards":725,"List":726,"ame":727,"ext":728,"ebsites":729,"eetings":730,"eamwork":731,"hould":732,"kin":733,"kay":734,"lf":735,"low":736,"loudy":737,"okay":738,"xercise":739,"ĠList":740,"Ġkin":741,"Ġokay":742,"iny":743,"Ġshould":744,"Ġslow":745,"self":746,"Ġbreat":747,"ĠTake":748,"ĠTrains":749,"ĠTeamwork":750,"ĠIt":751,"ĠWarm":752,"ĠWater":753,"ĠWalking":754,"ĠWebsites":755,"Ġname":756,"Ġnext":757,"Ġhere":758,"atience":759,"ĠMath":760,"ĠMeetings":761,"ĠAirports":762,"ĠHist":763,"ĠHomework":764,"ĠHelping":765,"ĠHotels":766,"ĠCats":767,"ĠCity":768,"ĠCloudy":769,"ĠPasta":770,"ĠProjects":771,"ĠPhones":772,"ĠPatience":773,"ĠDrawing":774,"ĠDogs":775,"ĠGardening":776,"Ġtelling":777,"Ġlisten":778,"ĠSoup":779,"ĠSandwiches":780,"ĠSunny":781,"ĠSharing":782,"ĠScience":783,"ĠComputers":784,"ĠEmails":785,"ĠExercise":786,"ĠRabbits":787,"ĠRainy":788,"Ġyourself":789,"ĠListening":790,"Ġkind":791,"Ġbreath":792,"ĠHistory":793,"pp":794,"ell":795,"Ġhapp":796,"Ġhappy":797,"op":798,"Ġhop":799,"Ġhope":800,"ed":801,"fu":802,"fuse":803,"vous":804,"ted":805,"Ġsad":806,"Ġbor":807,"Ġexci":808,"red":809,"Ġner":810,"Ġconfuse":811,"Ġtired":812,"Ġhopefu":813,"Ġbored":814,"Ġexcited":815,"Ġnervous":816,"Ġconfused":817,"Ġhopeful":818,"Ġwell":819,"Ġhelp":820,"vening":821,"Ġevening":822,"ĠGood":823,"ello":824,"hat":825,"Ġare":826,"Ġchat":827,"Ġwit":828,"Ġthere":829,"Ġdoing":830,"Ġhi":831,"Ġhow":832,"ĠHi":833,"ady":834,"Ġready":835,"Ġwith":836,"?<|":837,"Ġtal":838,"Ġwould":839,"Ġhello":840,"Ġstarting":841,"ĠHello":842,"Ġtalk":843}